fffa
ffef
003b
004e
0039
007d
0068
003b
0071
007f
0069
0031
fff1
000d
fff7
0035
ffdf
0003
0068
0087
0065
001c
0003
fff5
ffea
0000
0025
001b
ffdb
ffbe
ffc0
0018
004c
0048
0032
003a
003c
0014
fff7
fff0
ffb6
fff4
ffac
fff6
fff4
0015
fffe
0011
003f
0015
0028
0024
0017
0026
ffc0
ffcf
0008
0000
fffa
ffd7
ffe2
0014
0012
000b
0032
004e
0022
003a
fffb
ff83
000b
ffc9
fff4
ffdd
ffeb
ffe8
ffcc
ff8c
ffef
002d
0024
0005
ffff
ff60
fff9
ffbf
ffd1
0018
ffe5
fff5
ffce
ff55
ffa7
0006
fff9
002c
0091
0019
fff1
ffd0
002e
0051
003a
004b
ffe3
ff9f
ffe8
0012
0028
003c
0083
0095
ffaf
ffeb
0050
003f
003d
005a
fffa
ffe0
003d
003d
0032
001d
005d
0078
fff5
fff4
001d
004f
003b
0064
0046
0015
0030
fffd
fffe
001f
0038
ffec
0018
0043
002f
0019
0026
0060
0062
0035
0007
0007
0010
0037
fff8
0026
ffcb
0006
ffe8
0025
0038
0040
005a
005a
001a
000e
001e
0037
fffc
ffcf
0002
ffbb
ffc9
ffcc
ffd4
ffd8
0009
0030
fff8
ffb3
ffac
fff6
004e
0019
0007
ffe6
ffbb
ff65
ff3e
ff65
ff6f
ff4b
ff60
ff5d
ffbe
ffbb
ffd2
fff1
fffe
fffa
0029
0052
0032
006e
006a
0034
0066
005c
005a
004b
fff0
000d
ffff
004b
fffb
0031
0080
00a5
00c5
0072
003f
0006
ffde
ffcf
0026
ffe9
fff5
000d
fffb
000b
0016
002d
0017
0034
002f
0031
0007
ffe5
ffbe
0031
0056
003b
002d
001e
0006
0013
001a
ffeb
0000
0035
0023
0023
ffc1
ffc0
0051
0052
0054
001d
0034
001b
0012
001d
0055
0050
0044
001e
ffc0
fff0
000a
0009
0007
000a
ffe5
ffac
fff4
001d
0027
0030
003d
004b
0000
ffaa
fff0
ffd2
ffa9
ffb4
ffc2
ffbc
0013
0011
ffde
fffb
0001
003b
0087
000a
ffd7
ffcc
ffc9
ffe1
ffdc
0013
0067
0036
ffdb
0020
0024
0026
004c
0086
fff3
001f
003b
fff2
0022
0043
0033
ffed
ffe7
0018
0016
0025
004e
0068
002c
ffe5
fffe
0006
003d
002b
0032
000c
0027
0022
0000
003c
0046
006a
0028
0016
000a
0055
0056
0046
0052
0047
fffa
ffff
0004
000f
ffed
006c
001f
001a
0046
005d
004d
004a
0064
0058
000a
ffde
ffc8
ffc4
ffe9
ffee
000c
ffb2
ffa6
ffc7
ffec
001f
0044
0042
000c
ffa9
ff8a
ffb5
003a
0026
fffa
ffdc
ffbe
ffbd
ffda
ffd4
ffc1
ff96
fff2
ffb4
ff8d
ffa0
fff3
fff0
0004
0012
000e
0046
0045
0023
001c
fff7
0016
0056
0052
003b
fff8
ffff
fff5
0012
0057
003a
004c
005b
0004
ffe4
ffd7
0033
0037
0037
0005
0028
fffa
0015
000e
fff6
000d
0004
ffeb
ffdb
0012
002c
0011
001a
002e
fffc
0042
ffd1
0017
ffe4
fffb
fff0
0009
0020
0004
ffe2
ffe9
ffe2
0027
0028
ffb3
ffe2
ffe5
ffd7
ffda
000f
0001
ffec
ffe7
ffb0
fff1
ffbd
ffd3
ffd3
ff61
ffd9
ffea
000a
ffed
ffca
ffae
ffda
ffe5
ffd8
ffb2
ff7a
ffb8
ffcb
ffa2
ffc9
fffc
ffed
0001
000e
000a
0029
0021
002b
ffee
ffc2
ffd1
0014
ffd9
0030
001d
0021
001c
000d
002f
0041
0020
0031
0015
0001
0036
0005
ffda
008f
003b
002a
fffc
0016
005f
003e
0031
0037
002e
0000
0054
0024
ffb5
00a1
001d
0025
fff4
0007
003a
0040
004b
0022
0028
0001
0050
fff3
ffdb
0075
fffc
ffdd
0015
0013
0025
0043
0049
0038
0030
0023
0038
0004
ffc8
0098
0040
ffca
0009
0003
ffd7
ffdd
001b
0047
0074
0060
0043
0044
fff9
0013
fffa
000d
ffe2
ffce
ffc8
ffd2
0000
0000
0061
0087
0077
0029
0004
000e
001c
ffdd
ffc5
0022
0007
ffd5
ffc9
ff9e
0020
ffe6
ffd7
0004
0001
000d
fff0
ffd7
ffdd
ffb9
ffe2
fff3
ffdf
000e
ffc8
ffcc
fff7
fff5
fff6
ffee
003e
003a
0038
0028
001a
000e
000a
fffd
ffff
ffe2
fff3
ffc0
0021
004d
00b3
007d
0029
fffb
ffee
0010
0041
0041
0033
0037
0013
0000
003f
00a3
0106
0067
002a
ffde
ffe4
ffcc
ffb9
ffff
0023
0048
004b
0061
0015
00ba
00bb
002c
fff3
ffe8
fff9
ffd2
0026
0069
0069
0024
ffbb
002e
0032
0054
fff5
ffb4
ffbd
ffda
0014
0017
006e
0056
001a
ffdb
ff6c
ff81
000f
ffdb
ff69
ffa5
0010
0035
0060
0018
002e
000c
ffd2
ffb3
ffa2
ffaf
fffe
0025
ffe7
fffc
0007
000b
0062
0061
0059
0046
ffff
fff6
ffd1
0065
004a
0061
0042
001c
ffe9
ffd2
003a
006c
0062
003d
0024
0023
0018
0050
ffe3
0075
003b
0019
ffe8
ff91
0000
0032
0043
0016
0003
ffed
ffd5
007a
ffd1
0038
ffff
0047
0049
000c
ffdf
0015
0026
001e
001b
ffc3
ffbc
004b
001d
0019
002d
002d
003c
0035
001a
002c
0040
0042
001d
ffb1
ffce
ffed
0002
ffec
000f
ffe9
fff1
0013
000b
0012
ffeb
ff99
ffa4
ffa4
ffbe
0040
fff8
ffde
ffdd
ffce
ffb5
ff95
ff63
ff4e
ff5e
ff74
ff65
ff94
ffcd
0007
fffb
fffa
0003
0026
fff0
fff5
0013
002b
003d
ffc8
fffe
0028
fff8
ffff
000f
003c
ffaf
fff0
0036
0040
006b
003d
000b
ffaa
ff7f
ff7f
fffc
ffd8
fff9
fffd
ffcb
fff9
000a
0040
0048
005b
0047
0016
ffeb
ffad
ff92
0022
0007
ffe8
ffda
ffd8
ffdf
0003
0021
002b
0033
002f
0035
fffa
ff94
ffae
fff0
0007
0013
ffe9
ffe0
ffe0
fffe
0020
004b
0052
002d
0022
ffa8
fff7
ffb4
ffd5
0004
ffe0
ffb9
ffd5
ffbe
ffef
000d
0037
0049
0029
ffe7
ffdd
ffc8
ffeb
ffbd
ff96
ffc9
ffc1
fff9
fff7
ffcb
000c
001d
fff6
002d
0052
ffb5
ffdc
fff7
ffef
fffc
fffb
0024
0026
ffe4
ffeb
ffbd
ff9b
0004
008b
ffe0
002c
0054
0031
000b
0018
0000
fffb
0007
ffcb
ffb4
ffdb
003a
0078
ffd4
ffdb
0021
002d
0033
ffff
0006
fff7
0010
0008
0006
0036
0045
003e
0027
004f
004f
006c
0029
0012
ffe6
ffed
0017
0046
0039
0048
0014
0046
001f
003d
0042
0051
0033
001c
0033
0019
000f
003a
0030
005c
000c
ffd3
fffb
ffba
ff8d
ffdc
fffc
0005
0023
001e
003f
0032
0012
0001
0040
0012
000a
ffcf
0009
0017
000a
0013
0007
0019
fffa
fff1
fffe
ffbd
000f
0001
0005
0000
002d
0050
005e
0097
00a3
001e
0043
0083
0082
004c
0007
fff3
fff9
004c
0042
0091
0076
0076
007b
006d
0021
003d
002b
0041
ffe0
fffe
fff7
fff1
0013
000f
0014
0001
ffe0
ffee
ffe4
fffc
ffc3
ffec
ff9c
ff71
0044
ffe5
0000
ffcb
ffd0
ffd4
ffe6
0007
000a
ff9b
ff7c
ffc1
ff8b
ff59
001a
0007
000b
ffe0
ffbd
ffa8
fff6
0083
000c
ff78
ff94
ffa3
ff71
ff6a
000f
0013
ffd1
000f
0001
ffee
0074
0073
ffca
ffdd
0025
0053
ffca
ff70
ffe7
ffe4
0000
006d
0059
0046
002d
ffee
ffed
fffd
001f
00ae
0037
ff2d
ffd9
ffca
0044
0038
0030
0003
ffa9
ffe5
ffe5
fff8
004b
007c
fff3
ff2d
001f
ffca
ffe8
fff4
0028
002d
ffaa
ffcf
ffb4
0013
0020
000f
ffc1
ff69
0037
ff9e
ff84
ffb9
001f
002c
0046
0019
0033
0035
0012
ffdd
ffab
ffdd
001b
ffcf
ff73
ffa7
fff0
0049
0053
0065
0041
000c
ffd4
ff94
ffbc
002c
0014
001a
ff95
ffad
ffdc
001e
0022
002f
000c
ffe1
ffa0
ff60
ffb1
0044
000d
0021
0019
fff5
ffc9
ffbb
ffbd
ff9c
ffa5
ff86
ff60
ff8b
fff9
0025
0009
ffea
ffd6
ffbe
ff38
ff46
ff1d
ff38
ff44
ff5d
ffb5
ffea
ffe3
0011
000a
000f
fff8
ffb0
ffa2
ffa0
ff9f
0000
0025
ff90
ff91
ffb5
fff3
0000
0006
ffde
ffac
ffaf
ff96
ff79
ff82
ff44
ff79
ff5e
ff7f
ff7b
0016
001e
fff1
0014
ffe5
000c
fff2
ffcf
ffb8
ffb0
ffac
ffcd
ffbd
ffbe
ffb9
ffbb
000a
0072
0011
004c
0051
0046
0054
0039
003d
0020
0003
ffdc
ff43
ffb6
006f
003f
003a
003d
0058
006e
0069
0082
0046
0023
0006
fffa
ff52
ff8c
00a3
0039
fff5
0000
001a
0015
ffea
ffd9
001a
0037
0023
ffe7
ff56
ff82
004a
0020
ffea
ffec
ffdf
ffbb
ff41
ff75
000b
0028
fffe
ffe1
ffec
0036
fff7
fff5
0021
0030
0014
0001
ff96
ffb8
0024
0052
0049
005a
005a
00a8
0016
ffe1
0045
0038
0048
001a
ffd0
0000
0064
0042
003f
0027
0049
00b1
0057
ffdf
ffef
ffdf
fff4
000d
0013
0018
0012
ffff
fffe
fff0
0033
006e
003a
ffb6
ffc7
ff7f
ffba
ffe9
0017
ffe3
ffbf
ff9e
ff98
ff99
0029
0036
0005
ff94
ffc8
0002
ffe0
0002
fff6
ffd9
ffbe
ff9a
ffac
ffe4
fffd
ffce
0010
fff6
0071
0045
0013
0000
fff4
fff4
fffb
ffe8
fffb
fff0
001d
002a
ffff
000e
ffd0
0012
005f
0042
004e
0088
0092
0095
003a
002d
0024
ffef
fff9
fffc
fff5
ffb1
ffbc
ffc1
ffde
ffca
ff8c
ffd1
ffd0
ffc2
fff1
ffef
fffc
ffc3
ffe0
ffe7
ff92
ff7d
ff8a
ffb3
ffc5
ffd7
ffcc
ffd4
ffcc
ffb4
0010
0009
003b
0046
0016
fffd
000d
000d
fff2
fff1
0001
fffa
ffdb
ffe5
ffde
0062
0058
003a
0025
0012
0007
fff6
001b
0020
0025
0012
ffde
0009
0034
0041
0040
0025
0030
0000
0005
0008
0012
005c
003f
001e
ffc6
000b
0087
0039
0005
ffff
001c
0012
0014
002f
002e
0070
005a
0064
ff94
ffc7
0060
0010
ffde
0020
0032
002b
ffee
0026
004b
0006
003f
0084
ffe2
ffac
001d
fff6
fff1
0010
fffd
0016
000d
0005
003a
0039
003e
001f
ff68
ff97
002a
ff8c
ffd6
000e
0028
000a
fffe
fff4
0012
0015
000a
0000
ff4b
ffc3
0039
ffc7
ffc7
ffd3
0006
0010
ffec
ffda
ffe5
ffed
ffdd
ffb5
ff55
0024
0048
ff9c
ffca
ffed
ffe1
ffed
ffd8
ffff
ffdd
ffb4
ffc5
ff84
ff7c
fff5
0030
ff7b
ffc1
0026
000a
0022
0040
0032
fff0
ffb5
ffaf
ff8d
ffb9
ffe3
0002
ffde
004c
0014
0025
0040
0037
002b
fff1
ffa8
ff95
ff92
ffa5
fff6
0008
ffe6
ffd9
001e
003b
0012
ffff
0027
0025
0019
ffe2
ffda
fff6
fffa
0000
fff8
000a
ffe4
001b
003a
0028
ffd9
ffc8
005d
001e
ffcc
fffe
ffff
000b
000d
002b
000f
ffd7
ffff
ffe2
0001
ffe0
0032
0072
0092
fff8
0016
000e
ffd7
000a
0007
0007
000d
ffd2
ffca
fff9
0000
000f
0040
0060
fffe
fffc
fffc
001d
0039
0060
000c
ffbb
ff9e
ffd7
ffe9
fffd
0043
00d0
0087
0032
000c
0021
0049
006a
002a
ffe4
ff73
ffa2
ffcf
ffef
000a
0097
00a1
0053
000c
001e
0050
0063
0050
003e
fff1
ffc7
ff92
ffa1
ffbc
fff6
003d
003a
003e
0039
0068
005b
0064
005d
001e
0000
fffc
0014
ffde
ffad
ff92
004d
0050
000e
0015
004a
002e
0023
002a
0020
0037
000b
0041
ffe6
ff75
0007
fffb
ff95
ffe3
fffb
0014
0037
0067
002d
001d
001f
0041
0005
ff7e
0032
001a
ffcf
ff9d
ffc8
ff93
ffcd
0012
0000
000c
0018
ffee
ffca
ffc5
0013
0009
ffb9
ffb1
fffc
ffd1
ffda
0029
004c
0023
001c
0012
ffb6
ffb1
fffa
ffed
0005
ffc7
ffee
ffdc
fffb
004b
0065
004c
0013
ffb6
ffd2
0041
000c
000f
ffc4
ffd0
ffc6
0003
0011
002e
0009
ffe9
ffea
ffef
ffd0
ffd8
0011
0000
ffd1
ff96
ff74
ff9a
ff89
ff46
ff5b
ff6b
ffab
ffef
ffe0
0007
fffb
0002
002b
0040
0013
0010
0009
0001
0064
001e
0035
0038
fff6
ffff
fffd
0023
0054
0031
007c
00ac
0061
0032
001f
0043
000f
0003
0059
0037
0002
003b
0003
0001
0024
0035
0034
005e
006a
003a
ffef
ffcf
0025
0032
0034
000a
0022
0019
0033
0012
0021
0053
0026
ffd7
ffb1
ffc4
0021
fff4
ffb3
0007
003a
000a
0009
000f
0030
fff9
ffec
ffc7
ffe5
fffd
0018
0045
ff56
fff5
0035
0006
ffdd
ffd3
ffe8
ffd4
ffe6
fff4
ffe4
ffc0
003c
005a
ff95
ffd3
ffd5
ff9b
ffd8
0027
002f
0005
fff0
0006
ffd5
ff9c
002c
007e
ffd4
0018
ffda
ffe9
fff2
0022
003f
003d
0034
0042
fff2
ffce
005f
009a
ffe0
009b
0033
0009
fff3
0029
0061
0035
005a
0040
0031
002b
008d
0063
ffa3
007b
0067
0040
0020
0018
0035
003b
0045
0010
0017
004f
0057
0009
ffcd
0064
000f
0000
0006
fffa
002e
003b
002e
002a
0013
0056
0016
fff6
ffdb
009d
0006
ffd6
fff5
0009
0039
0028
0014
002b
0050
005f
0032
ffc6
0010
0029
ffc8
ffeb
fff8
002c
002b
0046
0051
0048
003c
003b
005c
0015
fff3
ffe2
ffeb
ffe1
ffb2
0002
ffee
ff9e
ffcc
ffce
fff2
ffe2
ffd6
0001
0007
fff8
0013
003e
0045
0077
006c
0010
0048
007d
005e
0049
000e
000e
0003
0039
0012
001e
ffd1
fffe
0011
0033
002f
0080
0084
007e
fffe
0018
fff2
ffce
ff7d
ff69
ff8b
ffe8
ffe4
ffec
ffed
0012
0031
0051
000f
ffee
ffd3
ff8e
ff52
ff32
ffb2
0009
002d
0041
0002
fff7
0009
0002
0028
0004
ffde
ff86
ff27
ff77
ffcf
0004
002a
0010
ff7b
ff63
ff99
ff7d
ffc9
ffc1
ffcf
ff4e
ff5f
ffd5
000f
003f
0051
ffc0
ffa3
ffb5
ffb1
ff78
ff6a
ff9e
ffc1
ffcf
fffc
0006
0021
0047
0040
0005
002c
0023
0016
ffef
ff8e
ff2e
0016
ffd2
ffff
ffdf
002e
004c
0005
fff1
0015
0039
005a
ffe1
ff7d
ff52
ffe9
ffc4
ff83
ffba
0000
0042
ffb3
ffda
000a
0045
0001
ffb2
ff63
ff53
fffd
0000
ff9a
ffa4
ffd5
ffe2
ffca
0028
002e
0013
ffeb
ff9c
ff8b
ff90
0013
002c
ffc9
ffbd
ffcd
ffe7
003f
0066
001f
fffc
ffdb
ffd2
ffbf
ffcc
ffd4
fffd
ffc1
ff9d
ffed
fff3
000f
0007
0003
ffe4
ffee
ffd0
ffd2
002d
000d
ffef
0050
0042
0014
000a
0011
ffe6
fffb
fff6
0003
006b
0023
0032
0002
0007
0045
005c
005c
007a
0086
0054
0018
0024
0040
0035
0001
fff4
fff1
0009
fff6
fffc
fff3
ffda
ffd5
001c
ff9e
ffc3
ffcb
0006
fff4
ffff
fff9
000c
0021
ffe2
ffa0
ff7c
ffae
0008
001d
0019
0006
0000
ffec
fff4
001a
0047
fff1
ffbd
ff7e
ffaa
fff3
000e
ffdc
ffff
000c
0026
002f
0005
0021
000b
ffc4
ff95
ffa4
ffe5
0014
ffe3
0000
0048
003f
004a
004e
0034
0028
0015
ffbb
ffc3
ffbd
0011
006c
0036
0037
003e
002f
0036
0089
007a
0042
0048
ffd2
ff8a
ff91
fff3
0026
0028
0002
ffe3
ffa8
ffa4
0055
0069
0046
0069
000b
ff7e
ffbc
ffad
0000
005d
fffe
ffdf
ff95
ff29
ff45
ffd1
0034
0039
fffd
ffb9
ffd4
ff9f
001c
004c
0009
0017
0018
ff9f
ff92
ffac
0024
000b
001c
ffe4
ffaa
ffb2
0016
0050
000f
fffb
ffd1
ff86
ff57
ffc1
0035
0020
001c
fffe
ffe1
ffa7
0018
004e
0001
0007
ff98
ff4e
ff86
002b
ffe9
ffca
0013
0037
002a
0007
0014
001e
fff4
ffae
ff6b
ff54
ffbe
0000
fff6
ffc1
0047
001b
000d
0028
fffc
0001
ffc0
ff72
ff39
ff54
ffbe
0027
0000
0016
0034
0008
0015
0005
001f
ffdd
ffad
ff83
ff9e
ffdb
ffe2
0002
fff2
0009
ffd0
0007
0018
001e
003b
002c
004a
0045
000e
0012
fff2
000b
0007
ffef
fffe
001e
002a
0033
002d
ffef
003a
0003
0014
0008
0000
0000
0007
000f
001a
0026
005a
0091
0096
0063
0058
005a
002f
fff2
0033
002e
001b
001f
fff4
0015
0028
004f
003b
0039
004d
0045
0005
ffc3
ffea
0021
0047
001d
fff6
0015
001a
0014
002f
0050
0062
0050
0025
ffd8
ffde
ffd6
fff9
0021
fff4
fffe
0008
ffed
001f
004d
004d
001a
0008
0011
0001
ffe2
ffc6
004a
ffea
ffcf
ffc5
ffc6
ffe0
fff0
ffde
0002
0041
0031
0076
0061
0004
0021
ffe4
ffd2
ffea
ffed
002d
002c
fff7
0018
0003
ffec
ffe7
0000
001a
0010
001e
0004
ffdb
0005
0014
ffe4
ffc0
ffe9
000f
000f
0019
fffe
002d
002e
002b
ffc8
ffca
000a
ffe6
ff7a
ffd2
0005
ffe8
000e
000f
fff6
0051
0042
0032
fff2
0007
0005
ffaf
ffc2
001e
0010
fff3
001b
0018
ffae
0034
0022
001e
0014
0017
0043
006e
0042
001e
000e
0001
ffef
ffdf
ffef
0006
0078
fffd
ffff
ffe6
0022
004e
004f
0019
ffdb
ffbe
ffed
fff7
fffd
ffee
0078
0054
0059
005d
0064
008b
0064
0056
0015
ffe7
0020
0018
ffe0
0010
ffea
ffe2
0045
0077
00b8
00b4
00bd
00ad
008f
0071
0057
0020
000f
0011
ffff
fffe
0023
001f
fff6
ffeb
ffe2
ffdf
fffc
0007
fff9
fff2
000d
fff4
0002
0039
0035
006c
0089
0073
0039
fff5
ffea
fff5
ffe4
001d
001d
0018
0023
002c
0047
003c
0059
0047
0058
0057
0040
0014
000d
001b
003c
0045
0008
0011
0004
0007
001b
0025
0025
0025
0045
002b
0035
006b
0046
ffc4
0006
fffd
ffee
0000
0004
0014
000a
0010
001d
0029
0040
0054
003e
ffb2
002c
ffcc
ffb9
ffdd
ffd6
0013
fff9
ffe0
ffc2
ffcd
ffac
ffee
0069
ffd4
000c
ffbb
ffd4
000b
001c
005c
004b
ffd8
ffbc
ffb3
ff35
ff06
fffa
002d
0008
ffca
ffcd
0012
fff3
002a
0001
ffaf
ffc5
fff2
ffe7
0023
002f
0013
0055
fff3
ff88
ff5c
ff8c
ffdd
ffc0
ffe3
0018
0023
0037
003e
ffca
001c
0047
0038
fff3
ff82
ff5e
ff77
ffd6
0027
0035
0054
002d
0016
ffb9
000e
0040
004b
002a
001e
000b
0029
002f
003c
006a
0053
001c
ffc7
ffe2
0025
007b
0034
0037
0028
005c
003c
003c
0053
0040
0014
ffef
ff98
0017
0011
0073
003d
006d
0080
0062
0056
0034
0023
ffd8
ffb1
0003
ffe7
ffd5
0011
0004
0019
0004
ffee
ffdc
ffe7
ffe4
fff5
fffd
003b
0052
fff2
ffef
0008
0009
001c
003e
0055
0053
0039
0008
0031
0078
0045
0047
0000
fff5
000c
0016
ffd5
0008
0015
0059
0022
ffe8
000a
0045
0031
006b
0021
0019
ffed
ffd7
ff9c
ff9a
ffd2
fff6
0014
001b
002b
0022
0024
0000
002e
003c
ffe1
ffe2
ff61
ff6f
ff9b
ffbf
ffdf
0028
0022
fff4
ffcd
ffcd
0037
fff0
ffd4
ffbb
ff6a
ffa0
ffde
ffe9
000a
fff1
ffd2
ffc5
ffe0
ffb6
000e
ffeb
ffa8
ffac
fff3
0017
0029
002d
ffcd
ff9b
ffac
fff3
0005
ffd0
0019
ffde
ffb4
ffbf
0028
0039
0046
000f
000a
fffc
fffa
002c
002a
0002
0017
0031
ffc7
000b
0008
0039
0033
004b
0058
002e
0026
fffd
ffd6
ffa6
0004
001c
ffd0
0016
000d
003c
002f
0079
003f
001c
0025
ffdc
ffcd
ffd7
0038
002c
ffbe
ffc2
fff9
0066
0034
003b
0015
001a
ffff
ffe9
000d
002f
003b
fff5
ffce
fff6
fffd
0004
fffa
ffe6
ffee
0011
0006
001c
0047
0064
001a
ffdd
ffdd
0032
ffd4
ffa3
ffd8
ffd4
fff9
ffeb
ffe6
0014
0073
007a
003a
ffa6
ffef
ffc0
ffc2
ffcb
ffdb
ffd4
ffb8
ffd3
001b
0022
005c
004c
0043
0002
fff3
0030
002e
0056
003b
0054
0072
0034
003a
0003
001a
ffe9
000d
fff1
fffe
0000
0018
0056
0049
0076
007a
0025
0002
006f
0050
0038
fff3
000b
000c
001b
ffec
fff3
001a
0025
002d
002b
0037
0020
ffdf
ffe3
ffdb
ffec
fffc
ffc0
ffb6
fff6
0020
0000
001a
001c
0013
ffee
0002
ffcd
fff1
002b
ffde
ffcb
fffd
0031
002c
0027
fff6
ffbe
ff8d
ffad
ffea
003d
0054
000c
0013
0010
0033
0031
003c
0050
001f
ffad
ffac
fffd
0008
005e
0045
0032
fffa
ff97
0002
0047
003c
0037
0036
fff7
ffe9
0021
0017
005a
003c
0005
fff8
ffa3
ffb7
ffe0
ffff
ffe0
fff7
ffef
ffd7
fffb
0019
0034
0089
0028
ffd9
000a
ff7a
ff6a
ff7f
ffb9
0013
0020
ffe8
ffe4
ffc0
ffde
0026
0086
ffde
fffd
ff86
ff7a
ffdd
0029
0062
0021
fffc
ffee
ffc8
ffc6
0052
0088
ffc1
ff92
ff73
ffa5
000b
0059
0092
0022
fff6
000b
ffd5
fff6
001c
0054
ffe5
ffb0
ff7e
ffcc
0019
005d
004f
0022
fffc
0003
fff8
fff9
ffeb
001a
fff1
ffa3
ffc2
ffd4
ffee
0010
005e
002f
ffec
fffc
fffd
ffe5
fff2
ffde
000c
ff93
ff55
ff8d
ffbb
0011
0025
002b
0003
ffd4
ffeb
ffd3
0035
0008
0006
ffe3
ffca
ff87
ff72
ff61
ff6e
ff1d
ff1d
ff6b
ff8f
ffea
000f
fffe
fff9
ffef
0000
000f
fff5
000a
001e
002a
ffca
ffe8
0006
000b
000b
0000
0000
002e
0005
fff7
ffb8
ffaf
0001
000e
ffec
ff6c
ff87
ffa7
ffaa
ffcd
fff7
fffc
fffe
0000
ffda
ffde
000e
000d
ffd6
ffca
ffb5
ff8d
ff74
ffdd
fff2
ffcb
ffa8
ffdb
fff4
0003
0013
000e
0016
ffe8
ffc6
ff61
ff17
ffb1
0036
ffaf
ffba
ffeb
ffe9
ffe0
0024
005b
0046
ffd6
ff6b
ff11
ff35
ffe5
0037
ffbf
ffb7
ffe7
fff2
fff9
0030
00d8
006a
ff6a
ff00
ff72
ffaf
ffda
0024
0045
ffd9
fff0
000b
fff2
0022
0090
0029
ff61
ffbd
ffeb
fff3
ffe4
ffe8
001f
ffac
ffc9
ffe2
ffd1
0021
0058
0000
ffba
ffe7
ffdf
fff0
0058
0015
0005
ffbe
ffa5
ffe3
ffda
0028
004e
ff97
ff88
ffbf
ffe7
0017
0036
fffa
ffdf
ff5e
ff58
ffca
fff8
0062
ffff
ffa3
ffec
0014
0001
004d
0063
001e
0017
ff46
ff9a
ffd6
0009
0000
0019
000f
001d
0023
fff0
0013
0032
0010
ffc7
ffb8
ffc0
fffd
ffde
ffe0
000f
0053
0047
0029
ffff
0033
003b
fff4
ffae
ffd0
ffb4
ffbe
ffe3
ffe6
ffe3
ffc8
0000
000c
001d
003c
003e
0003
ffec
0024
0000
ffe1
ffd9
ff5a
ffa6
ffb5
ffcc
ffb3
ffa8
000e
0006
0011
0003
ffe3
ffbf
ffaf
ff87
ffa7
ffc4
ff9f
ff7c
ff94
ffc1
000e
fff2
0002
ffc6
002b
ffdc
ffc7
0001
ffe0
ffd5
ffd1
fff8
001c
001e
003f
0040
0000
0034
0016
0011
0018
003a
004a
0041
0044
0007
000a
ffde
0030
005c
004d
0041
0031
003c
004e
001f
0048
0056
004a
0003
0007
fff4
0036
001a
ffd7
001b
0029
0034
002f
0000
0032
0008
0007
000c
0023
0033
0077
0073
ffc2
0067
0028
0014
ffeb
000e
0005
ffd7
fffa
ffcf
ffda
fffc
005f
009c
0015
0027
0005
ffe1
fffb
0063
0053
0015
0008
0001
ffbb
ff7f
ffac
004b
0029
000e
ffde
ffb2
ffd7
0017
0037
0009
0001
0039
000f
0003
0025
002a
0011
002d
0005
ffce
ffc5
fff9
0044
fffb
004d
003a
003b
003e
0042
ffe7
0016
0055
005c
0012
ffdf
0000
ffd0
ffea
0003
0010
0008
000a
ffe3
ffc6
ffeb
fff1
fffa
ffdf
ffca
ffc0
ffee
000f
fff1
ffd2
ffde
fffa
ffe2
ffbc
ffe1
0040
ffc9
ffe6
ffdc
001b
0047
002f
fffc
ffd9
ffc4
001a
0020
0011
0008
007c
0061
0074
005b
0070
008d
0096
007c
0058
003e
0035
ffef
ffc9
0009
fff7
ffdb
0048
004e
007c
00b9
008e
0085
0083
003a
001e
002b
ffff
fff7
fff6
0009
003a
fff7
fff0
ffe6
0018
002b
ffcf
000c
001d
fffd
fff0
fff3
0050
002a
005a
0067
005b
0071
0044
0048
000a
ffe8
ff88
001b
ffd6
0008
0054
008c
0041
0017
0004
ffef
0019
0011
001a
000d
fff2
ffdd
fff2
0067
00a9
0086
0022
002f
001c
001d
0002
000d
002d
0028
0024
ffc4
004f
004e
009f
0059
0022
0017
000a
ffe7
000b
002d
001d
0002
ffee
ff4f
003c
0055
004d
ffbf
ff7d
ff42
ff3b
ff48
fff2
0012
ffe1
ffc0
ff8e
ff89
ffeb
ffe8
ffec
fee3
fecb
ff55
ff8b
ffd7
000a
ffdb
ffd2
ffb5
ff99
ffce
0051
001f
000c
ffd7
fff9
000a
fff4
0058
005b
0006
0018
0022
0029
0066
0083
004c
009b
0075
003b
000f
ffe8
0070
0049
000b
002e
002b
0035
0091
0088
fff5
00ae
0054
003c
001f
ffea
0005
0024
0034
0032
0010
001f
0067
009e
ffed
007a
0023
004e
0039
0009
fff1
0007
0030
0027
0007
ffd2
003d
0058
003b
0069
0072
0031
fffb
fff6
ffd3
fff7
0006
0017
ffd4
ffcf
ffed
0007
fff6
0070
0038
0004
ffdc
0000
0024
ffe8
ffbf
ff8d
ff87
ff97
0018
0032
fffe
ffd2
ffc8
ffc6
0016
0013
ffc9
ffce
fff8
fffc
ffd1
ffc9
0013
0003
ffff
fff1
003b
0040
000a
0001
000f
ffeb
0029
fff8
0031
0027
ffee
fff7
0002
001f
001b
000e
0031
0001
0003
0020
0024
0015
0025
000b
000a
0029
fffb
004a
fffa
0005
0014
000e
ffff
001e
0024
fffd
ffd8
ffba
ffe1
fff8
0049
0013
001f
001d
ffc4
ffb6
ff76
ff5f
ff63
ff8b
ffa5
fff9
fff4
ffe4
0049
000e
0014
000e
ffd8
fff6
fffb
0000
0027
0031
0056
006b
0079
0003
0036
0075
0043
0013
002b
007a
00a7
00a9
006f
0060
006e
0075
00bd
00b3
0033
007f
0025
0024
0031
002c
ffe9
ffd9
ffe4
fff3
ffe2
ff7c
ffb0
0053
0020
001e
fffc
fff8
ffd4
ffe0
ffc5
ffbf
ffdb
ffe1
0002
0025
ffef
ffe0
ffe0
000f
0031
0019
ffdf
ffc8
ffc0
ffd7
000f
0006
ffd5
ffee
ffff
fff9
003e
0006
003a
0060
0072
0057
005b
0027
0001
ffe4
ffae
fff2
ffea
ffc8
0010
ffb7
ffce
fff6
0032
0014
001c
fffc
fffc
fff9
ffaa
0002
ffd3
0014
fff4
ffef
ff82
ff96
ffca
ffe6
ffe0
fffc
0006
fff3
ffb6
ffe1
ffe0
000f
0011
ffe6
fff2
ffae
ffc6
ffcb
fff9
0015
0026
002d
000c
0003
0025
fff0
fff4
ffdd
ffa2
ffaa
ffde
fff4
fff8
ffef
001c
0023
ffd9
0016
ffbf
fff9
0007
0010
0024
005d
0056
004f
0054
fffb
ffef
006e
0061
0050
fff3
000b
fff8
0014
003e
004b
0048
004d
0017
0001
fff3
0013
0026
0030
fff6
002a
fff4
ffdd
002d
001d
0046
0007
ffe2
ffa7
ffca
ffef
ffef
0028
0015
ffdf
ffdd
ffcf
001d
ffed
ffca
ffa5
ff7c
ffa6
ff95
ff9a
ff93
ffd0
001d
000c
ffe4
ffe3
000b
ffd4
fff3
ffcf
ffdb
ffcb
ffe0
ffe4
fffc
ffac
ff93
ffbf
ffa1
ffce
0019
0015
0005
ffe6
ffe9
ffcb
0000
ffff
000b
ffe3
ff76
ff71
ffbb
ffc3
002d
0050
0032
001e
002e
0002
0028
0022
002a
0047
0020
ffa2
fff1
002a
0046
003f
0017
0011
0036
0053
005c
002c
0040
0053
0016
ffba
ffcd
0023
002f
0050
0017
fff5
0033
0076
007e
0052
0054
0036
0018
ffe1
ffa7
0022
0021
0030
fffb
000d
0033
0053
005a
0025
0007
0025
0014
ffdd
ffda
0012
ffde
ffd3
ffdd
fff8
000a
000b
0000
fff0
ffe0
ffb8
ffbe
ffd7
0000
ffc9
ffd8
ffbe
ffd0
ffd4
ff9a
ff8c
ff77
ffcb
fff0
ffca
ffc1
ffec
fff2
ffdb
ffbc
ffcc
ffa7
ffa9
ff82
ff9d
ffa4
ffb6
ffd9
ffdd
ffe5
0025
ffff
0017
000e
ffeb
ff61
ffa0
ffc0
ff8a
ff76
ff66
ffc2
ffc4
ffce
fff8
fffc
0004
0016
0048
004e
0069
0050
ffed
0044
0081
0041
0028
0005
fff5
0005
001d
fff1
fff0
0014
0038
0017
0003
fff4
ffff
0007
0075
fffc
0016
ffe2
ffb3
ff93
ffc6
ffff
0013
002f
0049
0045
0047
0039
0007
0009
0036
ffca
ffaa
ffbe
fffd
0006
0002
fff4
000a
000e
000c
0000
0039
0044
ffdb
ffef
ffee
ffe9
0000
000d
0002
fff5
ffd3
0023
001e
0027
003b
00a7
fff8
ffc3
ffb1
ffde
002d
0049
0000
001b
ffc0
ffda
001c
0024
0069
00b7
ffdd
ffb6
ffc8
fff9
0043
0027
0025
005a
ffce
ffc7
0008
0025
0076
00b4
ffc9
ffdd
ffc9
0008
002a
0031
005c
0059
ffc5
ffd3
ffec
ffee
ffff
0026
ffbb
ffc5
ffc3
0003
0037
006f
0077
0014
ffe3
fffd
ffe2
fffa
fff1
001a
ffb6
ffd6
ff96
000c
0066
0075
0076
fff6
ffe6
000e
0000
000a
0044
000f
ffc3
0030
ffde
002a
0043
0018
0031
0029
0028
0015
fff9
002d
004f
ffb5
0001
ffd5
fff5
ffb1
ffeb
0012
002c
006e
005a
0038
0029
0031
0042
ffcb
ffdc
fffd
ffa8
ff77
ffaf
ffeb
0004
000c
0028
0026
0041
ffea
fffc
0016
ffc7
000b
fff4
0021
ffd5
ff9a
ffdd
ffca
ffd1
ffba
ffc3
ffd1
ffda
ffdc
fffb
0001
0010
fff9
ffeb
ffce
ffa1
ffac
fff3
ffb5
ffd3
ffd9
ffb4
0007
000c
ffef
ffc1
ffbd
ff84
ff5f
ff12
ff4a
ff4b
ff55
ff69
ffad
ffdb
0028
0006
ffef
ffe4
ffcb
ffbf
ffaa
ffbd
ffea
ffbb
ffbe
ffec
0019
ffe4
0033
0032
ffe7
0036
ffe3
ffff
ffe0
0013
0019
0028
0038
0027
0036
0013
0017
ffea
001e
fffa
002b
003f
0023
003b
0045
0040
ffeb
fff8
ffec
002d
001a
004b
0060
0020
0077
009c
009f
007b
0052
000d
ffc0
ffea
fff6
0065
005f
0058
0058
0055
0059
004b
0024
ff8f
ff7f
0019
001a
0013
0064
006c
005d
0073
0000
fff2
ffa7
ff92
ff72
ff96
ffe7
0033
0015
0022
ffed
fff7
ffd6
0039
000f
ffa1
ff6b
ff86
ffdd
0029
005d
0013
fff6
ffc5
ffbc
ff97
ff8d
002b
002b
ff8e
ff7e
ffca
0022
003e
0029
fffe
ffea
ffeb
ffb2
ff8d
ff8a
001d
fffa
ff7c
ffb9
0018
ffe8
ffdd
000c
fff3
ffe1
ffe2
ffc5
ffce
fff1
ffb9
fffd
ff61
0008
fffd
ffe4
ffdc
000a
0021
ffe0
ffc3
ffe0
0010
ffef
ffb7
000c
ffc4
ffe1
0008
fff4
0011
0015
0036
0032
0044
0047
ffe2
ffd9
fff2
0010
ffcd
000b
005f
008c
005f
0087
00ea
00b1
0083
004f
0026
fff9
fffe
fffe
fff2
fff7
ffdd
0007
fff7
ffe8
fff1
fff7
ffed
fff1
000b
fffa
0000
000b
fff3
0005
0028
005c
004c
0007
ffb6
ff88
ff7b
ffdb
ffe9
001f
0025
0010
0021
0037
0034
0048
0065
0062
fff8
ffb8
ffbd
ffdc
fff3
003e
0049
0044
004a
fff7
001c
004e
005e
008c
00ad
0075
003f
0026
ffdb
fffe
0010
0030
fffe
002d
004c
0060
006a
0078
00c1
0064
0022
ffe9
ffe5
fff6
002e
001a
0014
0023
0025
0021
fffe
0000
fff4
ffe9
fff3
ffdd
ffcb
000d
0074
002c
ffcf
ffe0
ffe4
ffcd
ffa5
ff74
ffd9
fffd
001a
ffc0
ffa5
ff8a
0018
001d
ff9a
ff7b
ffc6
ffe2
ffc8
ffd2
ffd2
ffe1
ffce
ffdb
ffcc
0020
0058
0000
ffb8
ff7e
ffac
ffe7
000c
fffe
ffc3
ffcb
ffe5
ffed
0009
003b
008a
0034
ffec
ffbf
ff86
ffbb
ffc3
ffd7
ffef
0009
001d
001d
002d
0064
005b
001a
ffea
0018
fff7
000b
ffe8
001e
0015
fffe
fffa
0007
003d
0075
0043
ffda
fffb
0031
0058
0049
002d
001b
000b
0002
ffca
fffc
006e
0073
ffbe
0000
0050
004a
0046
006d
003a
0057
003e
0060
004e
0043
0036
0069
ffeb
fff0
fff1
fff5
0020
00c7
00af
00d1
0105
00e4
00b5
0066
0044
000f
0010
fff3
000f
ffc3
ffc3
ffc6
ffa6
ffae
ffc5
ff82
ff8b
ffae
ffb3
000d
ffef
000c
ffb2
ffe7
ffa9
ff64
ff82
ff5b
ff9b
ffe7
000e
0015
0006
ffd8
fff7
0014
fff5
ffd9
ffe3
ffd8
0015
0014
0013
0015
000c
0005
0017
0042
fff5
ffb2
ffc1
ffc3
fffb
0027
0028
0038
005f
005e
000d
ffed
0010
0061
004e
ffae
ffad
ffb8
0018
002a
0012
0028
0001
fffa
ffff
0018
003e
00d9
0069
fffa
fff0
0007
004c
0046
0056
0069
ffff
fff6
0002
001d
004b
0072
005c
0008
0031
0077
0093
0059
0054
004e
002e
002a
003e
0036
001d
ffa4
ffe7
0029
0035
0047
0042
002c
002f
001e
fff1
0032
0035
fff6
ffec
ffa6
ff7e
0006
ffbd
ffd7
0016
001e
0019
fff4
0000
0052
0012
fffd
fff5
ff97
ff8b
ffeb
ffca
fff5
0000
ffe3
0000
ffce
000b
000a
000f
0005
ffd5
ff9c
ff78
0011
ff94
ffe3
ffe2
ffc2
ffd7
ffe1
ffe9
0000
ffe4
ffd0
ffe9
ffc4
ff82
ffe4
ffb9
ff8c
ffbd
ffed
0014
003c
002a
000f
fff2
fff0
0009
0008
fff9
fffd
0024
0020
0034
0022
0041
001d
0022
0015
0035
004a
001f
ffb3
ffdf
000e
002c
0060
0076
0068
0088
00d2
00c9
0074
004e
0066
002d
0031
0008
0010
fffb
ffd7
ffaf
ffcb
ff93
ffa8
ffcc
ff83
ff8e
ffa0
ffcd
fffe
fff6
000b
ff9e
fffd
ffd3
ff81
ff9c
ff8a
ffbb
ffb4
fff4
000e
ffd5
ffc1
ffe6
000f
0008
000b
000e
fffa
0017
0013
ffef
ffd4
fffe
ffe9
fffb
0037
ffd9
ffc8
0018
ffd5
ffe0
000f
001e
0027
004d
003c
0009
0005
ffc0
ffd7
0013
0016
0019
fffe
0020
0018
fff7
001c
0027
0021
0027
0015
ffdd
ffeb
0006
0083
0048
002a
004d
004e
0035
003f
0021
0045
004d
006a
0038
ff92
fff0
0042
007e
00ad
0095
004d
0037
ffcc
000e
004d
0059
0081
005d
ffac
fff5
0021
0032
0086
0068
001d
ffff
ffba
ffda
003b
005a
006b
0067
ffb7
ff9c
0029
ffde
0015
0045
002f
0010
ffe4
fff2
0029
002f
0035
0011
ff98
ff90
004b
fffd
0001
000b
fffa
0007
ffe2
000f
fff8
000c
001c
ffcc
ff9e
ffc7
0021
ffad
ffdc
ffbb
ffe2
ffde
ffe3
fff6
fff9
ffe8
ffd3
ffb4
ffe0
ffb8
fff4
ffa7
ffb6
ffd5
ffde
fffc
ffe1
fff7
ffe2
ffde
ffda
fff7
0004
ffef
000f
002e
0070
0044
0026
0009
ffeb
ffed
000a
0014
0034
001a
ffc8
ffce
000d
0019
0083
007e
00b5
0093
00b1
00d4
00c7
0098
008c
006a
002b
000c
000e
fff9
ffd9
ffbf
ffd5
ffc5
ffc6
ffc0
ff8d
ffc7
ffd5
ffcf
000f
000e
fffd
ffcc
ffea
ffc1
ff91
ffa5
ff61
ff65
ff75
ffe4
002b
0055
fff6
fffd
ffeb
ffc3
ffcb
ffbc
ffcc
fffa
ffde
ffc3
ffd8
fffb
000a
0062
0095
ffd0
ffb5
ffa8
ffb7
ffc5
0013
fff4
ffe0
ffd8
ffec
ffd9
fff2
0055
00ce
008b
ffe4
ffe0
ffc0
ffea
0009
000a
ffb9
ffa3
ffe1
0010
0017
004f
00d1
0028
0005
ffdc
ffc7
ffed
0061
0073
004c
ffb2
0022
fff2
ffd8
0005
001e
0000
001b
fffc
0009
004f
006d
0086
0047
ffeb
0013
000e
fffe
fff1
ff86
ff97
0002
0016
ffdf
fffb
0024
0040
001e
fff6
001e
0017
ffeb
ffc7
ff68
ff8b
fff2
ffad
ff9f
0001
000f
000c
000f
002b
0048
0005
ffc9
ff8f
ff4d
ff7c
ffcd
ffa9
ffa7
ffc8
ffdc
0001
0039
001c
fff5
ffee
ffbc
ff7d
ff5e
ffad
002c
ff88
ff8e
ff80
ffbc
0008
0016
fff0
fff7
ffd5
ffb9
ffc5
ff9f
ff9d
fff5
ff73
ff87
ff88
ffca
ffee
0007
0011
001b
0017
0000
fff3
ffec
0006
fffd
ffcb
ffe8
ffb3
ffc9
ffdf
ffbf
fff5
fffb
0002
fffe
0023
ffb1
ffcf
000a
001a
0031
0013
ffd2
ffe8
0007
ffb9
ffbb
ffb0
fff2
ffee
ffe7
fffc
000f
fffd
0020
0004
ffde
ffe0
ffe7
ffbf
ffc6
003b
005d
0049
0003
fff0
000c
001f
0040
0041
0033
003c
0026
0030
0055
0093
004e
0038
000c
ffe8
001b
004e
0014
fff6
ffe2
0010
003e
0014
000f
0033
0023
ffe4
002d
004f
0027
ffd5
ffbb
ffac
ffe3
0007
0044
0061
0039
ffff
ffea
ffac
000f
fffe
ff98
ffb0
ffb0
ffff
0017
0019
0025
004b
fff4
ffcb
ffd6
ffca
001d
005a
ff49
fff4
0020
0048
002d
0007
003e
007e
ffe5
ffcd
000c
001e
007b
00d0
ff92
0034
004f
002c
000e
ffe3
00bb
00f9
0046
002a
0031
ffdd
ffb6
000e
0000
002b
ffe0
ffc0
ffd0
fff8
00ae
008f
0011
ffe9
fff6
ffbf
ffa1
ff9f
002f
0028
ffdc
ffc3
ffca
002d
0074
0021
ffd5
ffea
ffbf
ffdf
ffce
ffbd
ffbe
003d
0005
fff6
ffd1
ffe5
ffe8
0004
0015
002e
000b
fffb
ffcd
ffe1
ffe6
0008
000c
003b
000a
ffda
ffed
0025
003c
0033
002b
0016
001a
ffc8
0021
0075
0029
ffd4
ffe8
fffc
0005
0017
0034
0006
000e
0012
001e
0009
0003
0049
0024
0053
0054
0045
0029
0023
004a
0066
006a
003f
0008
ffe9
fff0
002d
006c
0075
008a
00a4
00ce
00ba
008c
0048
0065
0041
001a
0000
fff1
ffff
fff5
0002
0011
001f
0022
fff9
0005
000b
001d
001c
fffd
fff0
ffef
0027
ffb5
ffaf
ffc3
ff77
ff94
ffc3
fff6
000c
0016
003d
000c
0052
fff2
ffb2
ff2f
ff94
ff9e
ffcf
ffc8
0001
001d
0031
0053
0062
0054
001c
ffbc
ff66
ff64
ffc3
0001
002e
0015
0016
0049
0067
0059
0085
0088
0022
fff7
ff78
ff41
ffd2
0050
0059
0051
001d
003a
0015
fffd
002a
009f
0000
fff5
ff7a
ffab
0028
0056
004b
003d
ffd7
ff9d
ff82
ff88
ffcb
006f
0060
0026
ffe8
fff3
0063
0020
0018
0001
ff91
ff7e
ffbe
ffc2
ffd7
0015
ffba
002c
ffcb
fff8
0021
0036
0045
fff0
ff7a
ff8f
ffbb
fff2
0006
0034
ff37
ffbd
ffb4
ffcb
ffc7
0000
001c
ffca
ffa1
ffbe
ffe9
0016
fff1
fff1
ff56
0005
ff9b
ffde
ffff
ffdc
fff2
ffc4
ffd7
ffdf
ffef
0018
fff9
0007
ffa1
0017
ffc7
000b
0020
0042
006c
0067
0021
000f
0001
0008
0015
fff4
000a
ffb2
ff8d
0008
0018
004d
004f
005f
0059
0046
fffa
0008
0010
ffe3
002e
0005
fffc
ffa0
ffb9
0000
0007
0032
0041
0012
0023
ffee
fffc
001a
ffe3
fff1
fffa
ff8a
ff6e
ff93
ffe0
ffcd
ffb5
ffd1
ffd1
fff7
0015
ffee
fff7
ffef
ffff
0013
001d
fff0
fff3
fffe
fffd
fff1
0028
002d
0011
0008
fff1
fff5
0002
ffd5
fff7
0014
0028
0024
fff7
0001
ffb3
ffb5
ffc1
ffe6
ffdb
fffe
ffe6
0001
fffe
fff3
0014
0046
002e
0003
ffee
0000
ffb5
ffc5
000a
ffbf
000a
ffe8
ffdb
0008
0033
002e
003c
0023
0000
fff6
ffe2
ffc4
fff3
ffef
ffe2
000c
0001
0026
0013
fffe
000e
ffe5
0008
001e
ffdb
ff98
ffef
fff8
ffb3
001e
0024
001a
0016
ffc6
0012
0024
004a
003a
0037
ff8f
ffa5
ffd5
ffc7
fff7
ffcb
fffb
ffc4
ffb0
0033
0035
0025
0068
0048
0010
fffc
ffd4
fff0
ffd9
ffdb
ffc9
ffe3
002d
0047
0035
0010
0005
ffbb
ff87
0078
ffdc
ffbb
ffe5
ffed
0024
002a
fffc
001d
001f
fff6
ffce
ffa2
ffba
0075
ffc1
ff94
ffbc
fff0
0017
000d
0016
fffd
fffb
0002
ffe2
ffd6
fff5
0091
ffda
ffe6
ffe1
0018
0015
0008
000a
0020
fff4
ffef
ffcb
fff8
000d
0013
0023
ffca
000c
0030
0031
001d
0020
000e
ffe9
ffcb
fff4
fff6
fff9
ffc6
0009
ff9c
ffd8
ffe1
ffed
fff2
fff1
fffe
ffe7
ffe5
0007
ffe1
fff9
0018
fff6
001c
003a
0064
007a
006b
006e
0096
0050
0010
001e
ffea
0037
0008
0000
000b
fffb
fffb
fff9
ffe0
ffc9
001f
ffd4
0027
002f
001b
0000
000d
0007
ffda
ffe6
ffba
ffd8
ffb0
ffb4
ffab
ffe6
ffd1
ffc2
0030
fffe
ffd4
fff2
ffcb
ffa8
ff8f
ffa7
ffae
ffce
ffeb
0011
0003
002f
002e
003f
004c
ffbc
ffbb
ff7a
ff81
ff84
ffcc
ffed
fff7
fffb
0027
0029
0045
007c
0006
ffef
ffab
ff7c
ff83
ffb5
0030
005d
ffdf
ffba
ffdb
000a
0045
0084
0024
ffc8
ff7c
ff9a
ffc3
0015
0080
00a5
005d
ffbc
ffcb
ffdb
001c
005d
004f
ffd8
ffc5
fff1
ffdd
fff7
ffea
0064
006e
0013
ffc7
0004
fff3
0013
0057
fff4
ffef
ffb2
ffae
ffe9
0001
0034
0047
ffe7
ffbd
ffa7
ff65
fffc
00b3
ffda
ffd5
ffc4
0009
0039
004b
003c
0003
ffcc
ff9e
ffbc
ffd7
004b
00a8
ffc6
ffa3
ffb0
0024
005d
0043
0018
ffd6
ffb9
ffc4
fff0
000d
0048
005c
ffe2
ff98
ffc1
0020
001d
ffef
ffd0
ffe8
fff4
000f
0013
0015
0006
0006
0028
ffbc
fff4
fff8
fff8
fff2
0027
0020
0027
0001
0015
0025
000c
ffd0
000e
ffaf
ff48
ff90
ffe2
ffeb
ffe3
ffe3
fff4
ffe5
ffe7
fffc
ffe6
fff3
000f
0010
000b
fffa
ffe3
001a
001a
000f
fffc
ffb4
ffcf
ffb8
0008
000c
fffd
fff6
ffc3
ffad
ffb1
ffb6
ffba
ffd8
ffa3
ff92
ffb3
ffca
ffef
fffa
fff4
ffb5
ffdd
ff6d
ff4f
ff77
ffa4
ffc0
ffe6
ffe7
ffdc
ffb2
ffab
ffdb
0009
000b
0050
0014
fff5
fffb
0019
0039
0028
ffed
0004
ffef
ffef
ffc1
fff6
0075
0056
0023
000b
0004
ffff
0000
0019
fffe
fff3
fff6
ffe3
000e
0014
004d
005c
0010
ffec
ffc0
ffdf
0015
002d
0068
0033
fff3
ffa3
ffff
0094
004e
ffe1
ffb0
ffce
0010
0033
000b
006a
007c
0049
fff9
ff49
ffbf
0044
0015
ffcd
ffe2
0043
0066
0035
0019
004b
0047
0016
ffec
ffa1
ffcb
001f
fff2
fff9
0006
0023
0037
0025
fffb
0068
005f
fffa
ffc1
ff85
ffd0
004c
ffe7
fff8
0011
0024
ffee
fff5
001e
0053
0016
0000
ffe5
ff97
ffd0
0005
001f
001b
fffa
0007
ffe3
ffd0
fff9
fffe
ffe1
ffe1
ffbc
ff5f
0018
003a
ffde
ffe6
ffee
ffca
ffbc
ffba
ffcf
fff4
ffcb
ffe0
ffa1
ff81
ffba
000c
ffb4
ffad
fff8
ffe0
fff1
000b
0000
ffe6
ffde
ffca
ffb2
ffb0
ffb3
0009
000f
0079
0037
0014
0032
001e
0012
ffef
ffc0
ffd2
ffbd
ff98
ffe3
fff4
001a
000a
0026
005c
0008
0007
002c
003f
0026
ffe7
ffef
fff2
fff7
