0022
003b
006d
0074
ffc8
0093
ffbd
ffea
0082
0055
0073
0000
ffc8
fff9
002b
00b7
0032
ffb3
009f
0059
00ac
000b
ff6b
ff70
ffac
ffcc
0041
ffe7
005a
ffef
0016
fff0
001c
000d
ffde
0024
fffe
fff6
000c
fff4
ffe5
fff5
0012
0011
ffdf
ffcc
ffff
fff1
fffd
ffc7
0003
002e
001d
fff3
ffd6
ffe6
0000
ffd9
0015
ffe2
fff5
0007
ffe6
fff3
0000
fff5
0035
004d
0042
ff01
0053
0036
ffe3
001e
ff8c
ffbc
ffa3
ffb6
007e
ffc7
0153
fff9
ffef
fec7
0039
ffe2
0067
ffd8
0062
0090
006b
0028
ff35
004f
0087
007d
ff7c
0010
ffb0
0058
ffdb
003b
ff90
0080
0082
ff9c
007a
00ec
ffcb
fff1
ffb3
fff5
009e
ffe7
0029
ff4e
ff2f
fff1
0004
ffc6
0047
fffa
00a1
006f
ffee
0040
007c
004e
ffdc
fff8
0003
ffdc
ff92
ff24
0078
001b
0071
000f
fff3
0075
000d
ff97
ffbf
0020
ff97
005f
0022
00f7
ff90
ffab
0080
0086
0046
0049
0063
fffd
0074
000c
0054
ffde
fffb
0042
0062
0043
005c
001b
ffde
ffbf
ffab
0059
004f
ffba
0067
00df
0097
ffb6
ff9c
0027
0049
0068
006e
fff6
fffe
004e
ffd6
ffd1
ff88
0081
ffbb
0036
0000
ffc4
ffe4
0023
0038
ffd0
005b
ff96
ff7b
ffc6
0025
0025
0017
007f
0040
00c9
008e
fffa
ff45
fff3
ffa8
0035
ffa3
0052
0021
0069
0008
ffc9
ffff
0093
0098
001a
00a8
ffa3
000a
fffa
0048
fffc
ffa0
ffe7
0033
006b
002b
0052
0065
fff5
0039
ffbb
0050
ffc1
ffa0
006b
ffc3
ff6f
001f
fffc
ffe6
ff96
005e
0051
0035
0055
ffa2
005c
ffb6
0036
0037
ffe8
001e
0005
000a
ffba
0068
ffc1
0012
ffeb
0073
0082
0043
0072
ffb9
ff96
ff5f
004b
008c
010b
0025
ffcb
ff6e
003e
0020
fff9
0018
ffdf
007f
ffca
ff9e
ffca
ffd0
004d
ffdd
000e
000e
00c9
0084
0066
ffd7
ffb8
006c
0033
0067
002c
ffa0
ff4c
005c
ffcc
003e
00a8
ff72
ffa1
004a
0059
ffe2
0078
ff9f
003d
ffe5
002c
ff64
0039
000a
ffe0
ffda
0016
fffa
0010
000d
fff7
0003
ffe8
ffda
ffed
0012
0000
001e
0014
0009
fff0
fff6
ffe3
0000
fff3
0007
fff9
ffe9
0000
ffdc
ffda
ffe6
000c
0029
ffe1
0092
007e
fff5
fffb
004c
0047
ffea
0023
ffbe
000a
0047
ffa8
002c
ffa4
0040
00c5
0031
ffce
ff88
ff58
0079
0092
0016
ffcf
fff5
0008
0019
ffe3
0087
0054
00cd
ffb9
001e
0053
0038
0068
005e
0068
ffe3
003d
0049
0000
ffc6
ffc4
ffc2
ffd8
ffe3
0099
0095
fffd
00c8
ff61
009c
ffdb
007a
ffee
ff96
ffad
ff89
0012
ffd5
0031
003d
ffd7
006a
004c
ffdf
0043
0027
fff3
ffc1
005a
fff0
0031
ff3d
ffe9
0064
0030
ffe9
000c
ffb5
0094
ffd4
0008
ffa3
0094
ffb4
ffe9
006e
001b
001e
0001
0031
ffd7
ffa0
0098
0064
004d
ffd6
0020
008a
ffe4
0095
0032
ff3f
0026
ffc0
ff5b
003a
0002
ffe5
0017
00c6
fffa
003b
ff95
ffbe
0004
004b
00a6
ffa6
ffae
ff8b
ffad
0025
0036
fff6
0050
ffa2
0035
0004
002b
0031
ffde
ffe6
ffe8
005d
0085
ff1a
000d
0056
00aa
ffe7
007c
ff50
0066
00ab
00de
ffa8
ffe2
00cc
0053
ffeb
ffb4
ff73
0071
ffa0
000e
ffcc
ffbe
