ffd0
ffe3
ffa5
ff95
ff81
ffc3
fff9
ffc3
0039
0047
0014
007b
ffa4
0080
004e
ff47
0049
0015
ffeb
008e
ff2c
ffdc
0020
ff59
ffb6
0061
ffe6
0010
0063
ff56
003d
0012
0012
000a
0037
feeb
fff9
0055
ffec
ffb7
ffd9
ff90
ffc9
003f
0058
ffb9
00b4
0029
ffd7
ffe5
ffac
ffb8
ff83
0078
fff0
0018
fffe
007a
ffca
ff46
fff4
0036
ffe3
0095
002a
ffaa
006b
0063
ffcf
ff7b
ff1b
003d
ffef
ff3b
003b
0005
000e
0057
ff90
ff74
002e
ffa8
ff4f
ffd2
005c
002e
0098
0008
0086
ffc3
0001
ffc8
ff95
fff9
ff6d
0032
0085
ffc5
ff5a
ffcc
ff66
0034
0011
004e
ffb2
ffa7
ffcf
00a1
004f
ffb4
ff76
ff64
ffcd
ffc3
ffeb
000b
00af
ff45
ff29
0017
0043
0080
001d
ff95
007e
ffe8
0084
0023
ff99
ffb7
000d
000a
ffd8
ffda
0038
ffec
ff19
ff70
0006
0057
ffe0
0048
ffdc
0097
fecd
ffb5
008b
002c
fff7
0023
fff2
005f
ffc4
0037
0031
0003
ff42
ffe8
ffa2
ffa0
